// Copyright 2024 The IREE Authors
//
// Licensed under the Apache License v2.0 with LLVM Exceptions.
// See https://llvm.org/LICENSE.txt for license information.
// SPDX-License-Identifier: Apache-2.0 WITH LLVM-exception

// The configuration used for executable compilation.
// This specifies the device configurations that support this custom kernel.
#rocm_target = #hal.executable.target<"rocm", "rocm-hsaco-fb", {target_arch = "gfx1100", ukernels = "none"}>

module attributes {transform.with_named_sequence} {
  util.func private @argmax_1d_f32_entry_point(%arg0: tensor<1x?xf32>) -> tensor<1xi64> {
    %c1 = arith.constant 1 : index
    %dim = tensor.dim %arg0, %c1 : tensor<1x?xf32>
    // Note: This is not safe if the dim size exceeds INT32_MAX. To pass a 64
    // bit value it must be broken down into two 32-bit values for the high and
    // low bits.
    %dim_i32 = arith.index_cast %dim : index to i32
    // Inline external dispatch that conforms to the ABI that the kernel
    // requires. This is the primary reason for the surrounding function as
    // details like tensor shape and push constants need to line up after
    // splicing in the custom dispatch. This allows the kernel author to manage
    // such details by hand without needing the rewrite patterns to worry about
    // things like order of push constants.
    %4 = hal.dispatch.extern "argmax_F32I64"[%dim](%dim_i32, %arg0) : (i32, tensor<1x?xf32>{%dim}) -> tensor<1xi64>
      count(%device: !hal.device, %workload: index) -> (index, index, index) {
        %c1_0 = arith.constant 1 : index
        hal.return %c1_0, %c1_0, %c1_0 : index, index, index
      }
      layout(#hal.pipeline.layout<push_constants = 1, sets = [
        <0, bindings = [
            <0, storage_buffer, ReadOnly>,
            <1, storage_buffer>
        ]>
      ]>)
      bindings([
        #hal.interface.binding<0, 0>,
        #hal.interface.binding<0, 1>
      ])
      objects({
        #rocm_target ordinal(0) = [
          #hal.executable.object<{
            data = dense<"0x7f454c460201014003000000000000000300e0000100000000000000000000004000000000000000208f0000000000004100000040003800090040000f000d000600000004000000400000000000000040000000000000004000000000000000f801000000000000f801000000000000080000000000000001000000040000000000000000000000000000000000000000000000000000004c0c0000000000004c0c00000000000000100000000000000100000005000000000d000000000000001d000000000000001d000000000000007d000000000000007d00000000000000100000000000000100000006000000008a00000000000000aa00000000000000aa0000000000007000000000000000000600000000000000100000000000000100000006000000708a00000000000070ba00000000000070ba000000000000000000000000000091a801000000000000100000000000000200000006000000008a00000000000000aa00000000000000aa00000000000070000000000000007000000000000000080000000000000052e5746404000000008a00000000000000aa00000000000000aa00000000000070000000000000000006000000000000010000000000000051e57464060000000000000000000000000000000000000000000000000000000000000000000000000000000000000000000000000000000400000004000000380200000000000038020000000000003802000000000000b806000000000000b806000000000000040000000000000007000000a306000020000000414d44475055000083ae616d646873612e6b65726e656c7391de0012a52e61726773dc001686ae2e61637475616c5f616363657373a9726561645f6f6e6c79ae2e616464726573735f7370616365a6676c6f62616ca52e6e616d65b2696e7075744275666665722e636f65726365a72e6f666673657400a52e73697a6508ab2e76616c75655f6b696e64ad676c6f62616c5f62756666657286ae2e61637475616c5f616363657373aa77726974655f6f6e6c79ae2e616464726573735f7370616365a6676c6f62616ca52e6e616d65b36f75747075744275666665722e636f65726365a72e6f666673657408a52e73697a6508ab2e76616c75655f6b696e64ad676c6f62616c5f62756666657284a52e6e616d65ad726564756374696f6e53697a65a72e6f666673657410a52e73697a6504ab2e76616c75655f6b696e64a862795f76616c756583a72e6f666673657418a52e73697a6504ab2e76616c75655f6b696e64b468696464656e5f626c6f636b5f636f756e745f7883a72e6f66667365741ca52e73697a6504ab2e76616c75655f6b696e64b468696464656e5f626c6f636b5f636f756e745f7983a72e6f666673657420a52e73697a6504ab2e76616c75655f6b696e64b468696464656e5f626c6f636b5f636f756e745f7a83a72e6f666673657424a52e73697a6502ab2e76616c75655f6b696e64b368696464656e5f67726f75705f73697a655f7883a72e6f666673657426a52e73697a6502ab2e76616c75655f6b696e64b368696464656e5f67726f75705f73697a655f7983a72e6f666673657428a52e73697a6502ab2e76616c75655f6b696e64b368696464656e5f67726f75705f73697a655f7a83a72e6f66667365742aa52e73697a6502ab2e76616c75655f6b696e64b268696464656e5f72656d61696e6465725f7883a72e6f66667365742ca52e73697a6502ab2e76616c75655f6b696e64b268696464656e5f72656d61696e6465725f7983a72e6f66667365742ea52e73697a6502ab2e76616c75655f6b696e64b268696464656e5f72656d61696e6465725f7a83a72e6f666673657440a52e73697a6508ab2e76616c75655f6b696e64b668696464656e5f676c6f62616c5f6f66667365745f7883a72e6f666673657448a52e73697a6508ab2e76616c75655f6b696e64b668696464656e5f676c6f62616c5f6f66667365745f7983a72e6f666673657450a52e73697a6508ab2e76616c75655f6b696e64b668696464656e5f676c6f62616c5f6f66667365745f7a83a72e6f666673657458a52e73697a6502ab2e76616c75655f6b696e64b068696464656e5f677269645f64696d7383a72e6f666673657468a52e73697a6508ab2e76616c75655f6b696e64b668696464656e5f686f737463616c6c5f62756666657283a72e6f666673657470a52e73697a6508ab2e76616c75655f6b696e64b968696464656e5f6d756c7469677269645f73796e635f61726783a72e6f666673657478a52e73697a6508ab2e76616c75655f6b696e64ae68696464656e5f686561705f763183a72e6f6666736574cc80a52e73697a6508ab2e76616c75655f6b696e64b468696464656e5f64656661756c745f717565756583a72e6f6666736574cc88a52e73697a6508ab2e76616c75655f6b696e64b868696464656e5f636f6d706c6574696f6e5f616374696f6e83a72e6f6666736574cce0a52e73697a6508ab2e76616c75655f6b696e64b068696464656e5f71756575655f707472b92e67726f75705f7365676d656e745f66697865645f73697a6500b62e6b65726e6172675f7365676d656e745f616c69676e08b52e6b65726e6172675f7365676d656e745f73697a65cd0118a92e6c616e6775616765a84f70656e434c2043b12e6c616e67756167655f76657273696f6e920200b82e6d61785f666c61745f776f726b67726f75705f73697a65cd0400a52e6e616d65ad6172676d61785f463332493634bb2e707269766174655f7365676d656e745f66697865645f73697a65ccc0ab2e736770725f636f756e7424b12e736770725f7370696c6c5f636f756e7428a72e73796d626f6cb06172676d61785f4633324936342e6b64b82e756e69666f726d5f776f726b5f67726f75705f73697a6501b32e757365735f64796e616d69635f737461636bc2ab2e766770725f636f756e7420b12e766770725f7370696c6c5f636f756e744eaf2e7761766566726f6e745f73697a6520b92e776f726b67726f75705f70726f636573736f725f6d6f646501ad616d646873612e746172676574ba616d6467636e2d616d642d616d646873612d2d67667831313030ae616d646873612e76657273696f6e920102000000000000000000000000000000000000000000000000000100000022030700001d000000000000fc000000000000001700000022030700fc1d000000000000c0000000000000002f00000022030700bc1e0000000000004815000000000000a9000000220307007c860000000000006000000000000000cf00000011030600000c0000000000004000000000000000e000000011000a00006302000000000001000000000000005e00000022030700b43b000000000000a80900000000000070000000220307005c45000000000000c40300000000000084000000220307002049000000000000b83a0000000000009300000022030700d883000000000000780100000000000048000000220307000434000000000000b007000000000000c100000012030700008700000000000044110000000000000300000001000000040000001a00000000000090021000000c060000400002000000000001000a80000000808200a06301000000070000000b000000b02f30fd66a54e0f20613c71de07d6f6de6bdee749a5522bf447dcf8e09bd59ef67b32e2a134fbcc2ca8677d43090ac70d0000000d0000000c00000004000000000000000b00000000000000060000000a00000000000000070000000300000000000000000000000800000000000000000000000000000000000000000000000000000000000000010000000500000002000000090000000000000000000000005f5f6f636b6c5f6465766d656d5f72657175657374005f5f6f636b6c5f686f737463616c6c5f70726576696577005f5f6f636b6c5f686f737463616c6c5f696e7465726e616c005f5f6f636b6c5f6873615f7369676e616c5f616464005f5f6f636b6c5f646d5f696e69745f7631005f5f6f636b6c5f6765745f6c6f63616c5f6964005f5f6f636b6c5f646d5f7472696d005f5f6f636b6c5f6163746976656c616e655f753332005f5f6f636b6c5f73616e6974697a65725f7265706f7274006172676d61785f463332493634006172676d61785f4633324936342e6b64005f5f6869705f637569645f366134356234353732363564653237310000000000c00000001801000000000000007b0000000000000000000000000000000000000000000000000000000000000301af609b1300001a04000000000000000000000000000090010000000000000000000000000000000000000000000000000000000000000000000000000000000000000000000000000000000000000000000000000000000000000000000000000000000000000000000000000000000000000000000000000000000000000000000000000000000000000000000000000000000000000000000000000000000000000000000000000000000000000000000000000000000000000000000000000000000000000000000000000000000089bf210080be2000a1bec12281be000069dc002821000100febe280061d70004010020902081280061d71e000100280061d71f0201000303087e0203067e0103047e0003027e03030a7e01030a7e004780be00ff0080a800000001ff0182000000008302007e8002207e10030a7e10030c7e10030e7e1003107e1003127e1003147e1003167e1003187e10031a7e10031c7e10031e7e00499ebe040069dc00012100040051dc000021030002027ef70389bf0303047ea00080be01003dd7000202001f0060d7280301001e0060d728010100000060d728050100c12281be000051dc000021280100febe20d020810000a1bef70389bf1e4880be000089bf1003247e0f03227e0e03207e0d031e7e0c031c7e0b031a7e0a03187e0903167e0803147e0703127e0603107e05030e7e04030c7e03030a7e0203087e0103067e0003047e004780be00ff008000eeffff01ff0182ffffffff000000f4000000f8ff0081bef401000007fc89bf000104bfff0081be50000000980080be00010098040004f40000000007fc89bf000083bea00082be00028085000082be004780be00ff00801c00000001ff0182000000000302007e0202027e004880be000089bf210080be2000a1bec12481be340169dc00132100380169dc000021003c0169dc00022100400169dc00032100440169dc00052100c100febe000069dc002821000100febe280061d722040100280061d70006010020ff208150010000280061d71e000100280061d71f020100800069dc001f2100130061d706000100130061d707020100c122a2be040069dc001321002200febe7c0069dc001221001103247e7c0051dc00002111780069dc001021000f03207e780051dc0000210f740069dc000e21000d031c7e740051dc0000210d700069dc000c21000b03187e700051dc0000210b6c0069dc000a21000903147e6c0051dc00002109680069dc000821000703107e680051dc00002107640069dc0006210005030c7e640051dc00002105600069dc000421000303087e600051dc000021035c0069dc000221000003047ec122a2be040051dc000021002200febef70389bf000061d70f040100000061d70e060100000061d70d080100000061d70c0a0100000061d70a0c0100000061d70b0e0100000061d708100100000061d709120100000061d704140100000061d7051601001103267e0f03227e0d031e7e0b031a7e0903167e0703127e05030e7e03030a7e0103067e54006ddc001221004c006ddc0010210044006ddc000e21003c006ddc000c210034006ddc000a21002c006ddc0008210024006ddc000621001c006ddc00042100800081bec10080be01001fd700020000010020d7000202000103087e180069dc000421000105007e10006ddc0002210001004ad401010000010080be000061d700180100800182be8002027e8002047e08006ddc000121007e0080be000061d7001a0100c122a2be040069dc000021002200febe0001008b0000febe0101a5bfc122a2be040051dc000021002200febe100055dc00002101980182bef70389bf0103067e020081be0203087e030080be030100d703030000050020d5040104000503087e9c006ddc00032100184056dc01007c03f70389bf0000b0e0000000000000ace000000000a80182be01030a7e020081be02030c7e030080be050100d705030000070020d50601040007030c7e94006ddc00052100000056dc01007c06280056dc01007c0b0403127ef70389bf0c030a7e05001bd5051302000303147e0b03107e0d001bd50815020005031c7e0d030a7e980081be0b00fed6050300020c031e7e00020a7e0503207ea00080be0d003dd7001a02000d030a7e0d01fed605033c0401020a7e05031c7e0e003cd7001a02000f03107e0b03187e800080be80020a7e05031a7e0d030a7e05001cd5051102000e03167e0c03107e0b001cd5081702000503187e06030a7e0b03107e07030c7e0c030e7e050000d705110200070020d5060f020007030c7e004056dc05007c05f70389bf0603167e0b030c7e0a030e7e0903107e18400add01057c01f70389bf0000b0e0000000000000ace00000000001005dd401070200800080be000061d7001c01000203087e0103067e8c006ddc0003210084006ddc000121007e0080be000061d7001e0100c122a2be040069dc000021002200febe0001008b0000febe7600a5bfc122a2be040051dc000021002200febef70389bf010060d7001d01008c0055dc000021039c0055dc00002101940055dc00002108100055dc00002105010083bff70389bf000056dc05007c06000056dc08007c0b0403127ef70389bf0c030a7e05001bd5051302000303147e0b03107e0d001bd50815020005031c7e0d030a7e980082be0b00fed6050500020c031e7e00020a7e0503207ea00080be0d003dd7001a02000d030a7e0d02fed605053c0402020a7e05031c7e0e003cd7001a02000f03107e0b03187e800080be80020a7e05031a7e0d030a7e05001cd5051102000e03167e0c03107e0b001cd5081702000503187e06030a7e0b03107e07030c7e0c030e7e050000d705110200070020d5060f020007030c7e004056dc05007c05f70389bf0603167e0b030c7e0a030e7e0903107e00400add01057c01f70389bf0000b0e0000000000000ace00000000000005ad4010702000001008c000081be000061d7011c01000203087e0103067e8c006ddc00032100a4006ddc00012100000081be000061d701200100c122a2be040069dc000021002200febe7e007e9197ffa6bfc122a2be040051dc000021002200febef70389bf000060d7002101007e007e8ca40055dc00002100f70389bf84006ddc00002100c122a2be040051dc000021022200febef70389bf000060d7021f01007e007e8c840055dc00002100f70389bf08006ddc00002100c122a2be040051dc000021002200febef70389bf000060d7001b01007e007e8c010060d700190100100055dc00002101080055dc00002105f70389bf0503087ea00080be05003dd7000a02000503067e0405087e0305047e050083be02008284800080be000085be0204828c000061d702220100000061d703240100000056dc01007c03f70389bfc4006ddc00032100a80186be0103067e060084be0203087e070080be030400d703090000050020d5040110000503087ebc006ddc00032100280056dc01007c04030080bef70389bf0503067e03001bd500060200020080be04001bd50008020003030a7e05030e7e04030c7eb4006ddc00062100080056dc01007c028c0080be05003cd700080200f70389bf0203027e0503087e0303047e0603067e010000d701090200030020d5020702000303047eac006ddc000121007e0182be000061d702260100000061d7032801007e0080be000061d7002a0100c122a2be040069dc000021002200febe0001008b0000febe4000a5bfc122a2be040051dc000021032200febef70389bf000060d703270100010060d7032901005c0051dc00002102c40055dc00002107b40055dc00002100f70389bf00030a7e980083be0302fed6050700020403127e02020a7e0503147ea00082be00003dd70200020000030a7e0003fed60507240403020a7e0503027e09003cd7020002000a03027e0303087e800082be8002007e00030a7e0503007e00001cd5000302000903067e0403027e05001cd50107020000030c7e0703007e0503087e0803027e0603067e000200d700090200030220d501070a000303027e10006adc00027c000102067e0002047e08006edc00027c008102047e14006adc00027c00c122a2be040051dc000021002200febef70389bf000060d7002b01007e007e8c010060d700190100540055dc000021034c0055dc00002105440055dc000021073c0055dc00002109340055dc0000210b2c0055dc0000210d240055dc0000210f1c0055dc00002111ac0055dc00002117180051dc00002101800080be8002267e1303047e860080bef70389bf15003cd7000202001703027e1503287e1803047e1603267e010000d701290200130020d5022702001303047ed4006ddc0001210000006edc01117c00880184be0103227e040082be0203247e050080be110200d711050000130020d5120108001303247ecc006ddc0011210008006edc010f7c0010006edc010d7c0018006edc010b7c0020006edc01097c0028006edc01077c0030006edc01057c0038006edc01037c007e0080be000061d7002c0100c122a2be040069dc000021002200febe0001008b0000febeb300a5bfc122a2be040051dc000021002200febef70389bf020060d700230100030060d700250100100055dc00002101c40055dc00002106bc0055dc00002108a00184bef70b89bf0103067e040081be0203087e050080be030100d703030000050020d5040104000503087eec006ddc00032100204056dc01007c03f70789bf000056dc08007c08030080bef70389bf09030a7e05001bd505010000020081be08001bd5080300000503127e08030a7e980083be0a02fed6050700020b03187e02020a7e05031a7ea00082be08003dd70210020008030a7e0803fed60507300403020a7e0503127e08003cd7021002000903187e800082be80020a7e0503167e0b030a7e05001cd5051902000803127e0a03107e09001cd5081302000503147e06030a7e0903107e07030c7e0a030e7e050200d705110200070220d5060f0a0007030c7ee4006ddc0005210000006edc05037c000403127e0303147e01020a7e0002167e0b030c7e0a030e7e0903107e00007cbc20400add01057c01f70389bf02005ad40107020001005dd401070200800080be000061d7022e0100000061d700300100dc006ddc000121007e0080be000061d700320100c122a2be040069dc000021002200febe0001008b0000febe4800a5bfc122a2be040051dc000021002200febef70389bf000060d700310100010060d7002f0100020060d700230100030060d700250100dc0055dc00002103ec0055dc00002101e40055dc00002105010083bff70389bf00006edc05037c000403127e0303147e030081be02020a7e0102167e0b030c7e0a030e7e0903107e00007cbc00400add01057c01f70389bf01005ad4010702000100008c000061d7012e0100000081be000061d701300100dc006ddc00012100000081be000061d701340100c122a2be040069dc000021002200febe7e007e91caffa6bfc122a2be040051dc000021002200febef70389bf000060d7003501007e007e8c0900a0bfc122a2be040051dc000021002200febef70389bf000060d7002d01007e007e8c3700a0bfc122a2be040051dc000021022200febef70389bf000060d7023301007e007e8c0f0060d7020501000e0060d7020701000d0060d7020901000c0060d7020b01000a0060d7020d01000b0060d7020f0100080060d702110100090060d702130100060060d702010100070060d702030100040060d702150100050060d702170100800051dc0000211f100055dc00002100f70389bf100056dc00007c02a00080bef70389bf00003dd7000402000003027e0203007e004780be00ff00803c07000001ff0182000000008102047e8002067e8302087e00499ebec0ffa0bfc40055dc00002106b40055dc00002100f70389bf0003047e980081be0300fed6020300020403107e0002047e0203127ea00080be00003dd7000002000003047e0001fed6020320040102047e0203027e01003cd70000020002030a7e800080be8002007e0003087e0403007e00001cd5000b02000103047e0303027e04001cd50105020000030a7e0603027e0403067e0703007e0503047e010000d701070200000020d5000502000003047e940182be0103007e020081be0203027e030080be000100d700030000020020d5010104000203027ef4006ddc00002100c122a2be040051dc000021002200febef70389bf010060d700190100810080be8102027efc0069dc000121007e0080be000061d700360100c122a2be040069dc000021002200febe0001008b0000febe0f00a5bff40055dc00002100f70389bf004052dc00007c00f70389bf0000b0e0000000000000ace000000000810080be00001bd500010000fc0069dc00002100c122a2be040051dc000021002200febef70389bf000060d7003701007e007e8cfc0051dc00002101f70389bf0105027ec10080be800082be010206bf000061d7003801007e00a2bec100febe040069dc000021002200febe0d00a2bfc122a2be040051dc000021002200febe010083bf800080bef70389bf000061d700380100c122a2be040069dc000021002200febec122a2be040051dc000021002200febef70389bf000060d700390100000001d580020100810080be00004dd4000100007e006a8baaffa4bfc122a2be040051dc000021002200febef70389bf010060d700190100cc0055dc00002101d40055dc00002103f70389bf000056dc03007c03f70389bf08016ddc00032100000056dc01007c01f70389bf00016ddc000121007e0080be000061d7003a0100c122a2be040069dc000021002200febe0001008b0000febee800a5bfc122a2be040051dc000021032200febef70389bf020060d703230100030060d703250100c122a2be100151dc000021002200febe100055dc00002101bc0055dc00002104f70389bf000056dc04007c0d810184bef70389bf0d03087e040081be0e030a7e050080be040100d704030000060020d50501040006030a7e04030c7e020081be05030e7e030080be060100d706030000080020d50701040008030e7e800180be00005ad4060100000503127e0703107e0c0001d50813020004030a7e0603087e060001d5040b02000603147e0c03167e0a03087e0b030a7e2c016ddc00042100980182be0103087e020081be02030a7e030080be040100d704030000070020d50501040007030a7e24016ddc00042100184056dc01007c04000056dc01007c080b030e7e0e031e7e07001bd5071f02000d03167e0a001bd50a1702000703167e0a030e7e980081be0d00fed6070300020e031e7e00020e7e0703207ea00080be0a003dd7001402000a030e7e0a01fed607033c0401020e7e0703167e0a003cd7001402000b031e7e800080be80020e7e07031c7e0e030e7e07001cd5071f02000a03167e0d03147e0d001cd50a17020007031c7ef70389bf08030e7e0d03147e0903107e0e03127e070000d707150200090020d5081302000903107e1c016ddc0007210000006edc07047c000503147e0403167e0c030e7e0b03107e0a03127e00007cbc18400add01067c01f70389bf02005ad40109020001005dd401090200800080be030061d7023c0100030061d7003e0100c122a2be040069dc000321002200febe14016ddc000121007e0080be000061d700000100c122a2be100169dc000021002200febe0001008b0000febe4200a5bfc122a2be040051dc000021032200febef70389bf000060d7033f0100010060d7033d0100c122a2be100151dc000021002200febe140155dc00002104240155dc000021012c0155dc000021061c0155dc00002108010083bff70389bf00006edc08047c000503147e0403167e0703187e0c030e7e0b03107e0a03127e00007cbc00400add01067c01f70389bf01005ad4010902000100008c030061d7013c0100000081be030061d7013e0100c122a2be040069dc000321002200febe14016ddc00012100000081be000061d701020100c122a2be100169dc000021002200febe7e007e91c6ffa6bfc122a2be100151dc000021002200febef70389bf000060d7000301007e007e8cc122a2be100151dc000021002200febef70389bf000060d7000101007e007e8cc122a2be040051dc000021052200febef70389bf000060d7053b01007e007e8cc122a2be100151dc000021042200febe000155dc00002106080155dc00002101f70389bf0103007e0203027e0603047e0703067e1f0060d7280301001e0060d728010100220060d728050100000060d728070100c12481be340151dc00002113380151dc000021003c0151dc00002102400151dc00002103440151dc00002105c100febe000051dc000021280100febe20ff2081b0feffff0000a1bef70389bf1e4880be000089bfc12480be300069dc000020000000febe200069dc000420001c0069dc000320000203067e1c0051dc00002002180069dc000120000003027e180051dc00002000f70789bf0203087ef70389bf0003047e10006ddc000320000203087e0103067e08006ddc00032000880182be0103007e020081be0203027e030080be000100d700030000020020d5010104000203027e00006ddc00002000c12285be240051dc000020000500febe200051dc00002001830080bef70389bf000044d401010000800081be000061d7010001007e0081be0100008b0001018d000061d701020100c12285be240069dc000020000500febe0000febe1900a5bfc12285be240051dc000020000500febe200051dc00002001840080bef70389bf000044d401010000800081be000061d7010401007e0081be0100008b0001018d000061d701060100c12285be240069dc000020000500febe0000febe2501a5bf1b00a0bfc12285be240051dc000020000500febef70389bf000060d700030100002280be020060d700010100000061d702080100800081be000061d7020a0100000061d7010c01007e00008b000061d7000e0100c12285be240069dc000020000500febe7e007e8dc500a5bf2a00a0bfc12285be240051dc000020000500febe200051dc00002001850080bef70389bf01004ad401010000c10080be000061d7001001007e0080be000061d700120100c12285be240069dc000020000500febe0001008b0000febed200a5bf0701a0bfc12285be240051dc000020000500febef70389bf010060d7001501007e017e8c000060d700170100007e008b000061d700000100c12285be240069dc000020000500febebbffa0bfc12285be240051dc000020000500febe200051dc00002001820080bef70389bf000044d4010100007e0081be0100008b0001018d000061d701180100c12285be240069dc000020000500febe0000febe0100a5bfa000a0bfc12285be240051dc000020000500febef70389bf000060d700190100002280be020060d700090100800081be000061d7021a0100000061d7011c01007e00008b000061d7001e0100c12285be240069dc000020000500febe7e007e8d1a00a5bfc12285be240051dc000020000500febef70389bf010060d700090100200051dc00002001810080bef70389bf020041d401010000c10080be7e0080be017e0191027e028b0102018c000061d7011a0100000061d7001c0100c12285be240069dc000020000500febec12285be240051dc000020000500febef70389bf030060d7001f01007e037e8c010060d700090100020060d7001b0100000060d7001d0100007e008b017e0191027e028b0102018c000061d7010a0100000061d7000c0100c12285be240069dc000020000500febe3700a0bfc12285be240051dc000020000500febef70389bf000060d700210100000055dc00002001100055dc00002003f70389bf00000edd01037c00800081be007e0091000061d700220100c12285be240069dc000020000500febec12285be240051dc000020000500febef70389bf000060d7002501007e007e8c010060d7002301007e0080be000061d700260100c12285be240069dc000020000500febe0001008b0000febe8200a5bf000055dc00002000100055dc00002002f70389bf00000edd00027c0000007cbc0000b0e0000000000000ace0000000007500a0bfc12285be240051dc000020000500febef70389bf020060d7000f01007e027e8c000060d7000b0100010060d7000d0100000061d701200100000061d7012201007e0081be0100008b0001018d000061d701240100c12285be240069dc000020000500febe0000febec4ffa5bfadffa0bf000055dc00002000100055dc00002002f70389bf00007cbc00000edd00027c0057ffa0bfc12285be240051dc000020000500febef70389bf010060d7001301007e017e8c000060d700110100007e008b000061d700040100c12285be240069dc000020000500febe0e00a0bf000055dc00002000100055dc00002002f70389bf00007cbc00000edd00027c0000007cbc0000b0e0000000000000ace0000000000fffa0bfc12285be240051dc000020000500febef70389bf000060d700070100002280be010060d700050100000061d7011601007e00008b000061d700140100c12285be240069dc000020000500febe7e007e8dfafea5bfdcffa0bfc12285be240051dc000020000500febe000055dc00002001100055dc00002003f70389bf00007cbc00000edd01037c0000007cbc0000b0e0000000000000ace000000000800080be7ec1008d000061d700100100c12285be240069dc000020000500febeb0ffa0bfc12285be240051dc000020000500febef70389bf000060d7002701007e007e8c080055dc00002001f70389bf100056dc01007c01f70389bf28006ddc00012000800180be01005dd4010100007e0080be000061d700280100c12285be240069dc000020000500febe0001008b0000febe1500a5bf280055dc00002001080055dc00002003f70389bf180052dc03007c00800080be80020a7ef70389bf0003067e0503087e00007cbc00006edc01037c000005007eff0081beff0000000001008b0000fdbe0100b6bfc12285be240051dc000020000500febef70389bf000060d7002901007e007e8cc12480be300051dc000020000000febe070089bf1e4880be000089bf210080be2000a1bec12481be380069dc00002100c100febe000069dc002821000100febe280061d722040100280061d70006010020c02081280061d71e000100280061d71f0201002c0069dc00052100140069dc00042100280069dc000321000103087e280051dc00002101f70389bf0103067e0403027e20006ddc0002210018006ddc00002100004780be00ff00801809000001ff0182000000008002007e100069dc0000210000499ebe140051dc000021040003047ec122a2be040051dc000021002200febe01030a7e100051dc000021010503067e08006ddc00022100f70389bf01004dd4040302007e0080be000061d700000100c122a2be040069dc000021002200febe0001008b0000febeca01a5bfc122a2be040051dc000021002200febe180055dc00002105080055dc00002101840080bef70389bf010018d500020200800080be8002067e0303047e0103067e0503087e0203027e0603047e030000d703090200010020d5010502000103087e800084be000061d704020100040080be040081be040082be040083be000061d700040100000061d701060100000061d702080100000061d7030a0100c122a2be040069dc000021002200febe0302107e02020e7e01020c7e00020a7e000076dc03057c000303007e340069dc00002100ff0085be00100000020500d7050002000403027e300069dc00012100040520d5040216000403067e03020e7e02020c7e01020a7e0002087e000076dc02047c00ff0085be00200000020500d705000200040520d5040216000403067e03020e7e02020c7e01020a7e0002087e000076dc02047c00ff0085be00300000020500d705000200040520d5040216000403067e03020e7e02020c7e01020a7e0002087e000076dc02047c00ff0085be00400000020500d705000200040520d5040216000403067e03020e7e02020c7e01020a7e0002087e000076dc02047c00ff0085be00500000020500d705000200040520d5040216000403067e03020e7e02020c7e01020a7e0002087e000076dc02047c00ff0085be00600000020500d705000200040520d5040216000403067e03020e7e02020c7e01020a7e0002087e000076dc02047c00ff0085be00700000020500d705000200040520d5040216000403067e03020e7e02020c7e01020a7e0002087e000076dc02047c00ff0085be00800000020500d705000200040520d5040216000403067e03020e7e02020c7e01020a7e0002087e000076dc02047c00ff0085be00900000020500d705000200040520d5040216000403067e03020e7e02020c7e01020a7e0002087e000076dc02047c00ff0085be00a00000020500d705000200040520d5040216000403067e03020e7e02020c7e01020a7e0002087e000076dc02047c00ff0085be00b00000020500d705000200040520d5040216000403067e03020e7e02020c7e01020a7e0002087e000076dc02047c00ff0085be00c00000020500d705000200040520d5040216000403067e03020e7e02020c7e01020a7e0002087e000076dc02047c00ff0085be00d00000020500d705000200040520d5040216000403067e03020e7e02020c7e01020a7e0002087e000076dc02047c00ff0085be00e00000020500d705000200040520d5040216000403067e03020e7e02020c7e01020a7e0002087e000076dc02047c00ff0085be00f00000020500d705000200040520d5040216000403067e03020e7e02020c7e01020a7e0002087e000076dc02047c00ff0085be00000100020500d705000200040520d5040216000403067e03020e7e02020c7e01020a7e0002087e000076dc02047c00ff0085be00100100020500d705000200040520d5040216000403067e03020e7e02020c7e01020a7e0002087e000076dc02047c00ff0085be00200100020500d705000200040520d5040216000403067e03020e7e02020c7e01020a7e0002087e000076dc02047c00ff0085be00300100020500d705000200040520d5040216000403067e03020e7e02020c7e01020a7e0002087e000076dc02047c00ff0085be00400100020500d705000200040520d5040216000403067e03020e7e02020c7e01020a7e0002087e000076dc02047c00ff0085be00500100020500d705000200040520d5040216000403067e03020e7e02020c7e01020a7e0002087e000076dc02047c00ff0085be00600100020500d705000200040520d5040216000403067e03020e7e02020c7e01020a7e0002087e000076dc02047c00ff0085be00700100020500d705000200040520d5040216000403067e03020e7e02020c7e01020a7e0002087e000076dc02047c00ff0085be00800100020500d705000200040520d5040216000403067e03020e7e02020c7e01020a7e0002087e000076dc02047c00ff0085be00900100020500d705000200040520d5040216000403067e03020e7e02020c7e01020a7e0002087e000076dc02047c00ff0085be00a00100020500d705000200040520d5040216000403067e03020e7e02020c7e01020a7e0002087e000076dc02047c00ff0085be00b00100020500d705000200040520d5040216000403067e03020e7e02020c7e01020a7e0002087e000076dc02047c00ff0085be00c00100020500d705000200040520d5040216000403067e03020e7e02020c7e01020a7e0002087e000076dc02047c00ff0085be00d00100020500d705000200040520d5040216000403067e03020e7e02020c7e01020a7e0002087e000076dc02047c00ff0085be00e00100020500d705000200040520d5040216000403067e03020e7e02020c7e01020a7e0002087e000076dc02047c00ff0085be00f00100000500d705000200020420d5040216000203027e03020a7e0202087e0102067e0002047e000076dc00027c00c122a2be040051dc000021002200febef70389bf000060d7000101007e007e8c080055dc00002101800080bef70389bf01004ad4010100007e0080be000061d7000c0100c122a2be040069dc000021002200febe0001008b0000febe2600a5bf200055dc000021022c0051dc00002104180055dc00002105f70389bf0503007eff0080be00a00100000100d7000002000603027e800080be050020d5000206000503027e00086edc00027c00800080be80020c7e06030a7e950080be05003cd7000802000503087e02030e7e06030a7e03030c7e040000d7040f0200060020d5050d020006030a7e08086edc00047c0010086edc00027c00c122a2be040051dc000021002200febef70389bf000060d7000d01007e007e8c1f0060d7280301001e0060d728010100220060d728050100000060d728070100c12481be380051dc00002100c100febe000051dc000021280100febe20ff2081c0ffffff0000a1bef70389bf1e4880be000089bfc12480be240069dc00002000280069dc000120002c0069dc000220000000febe040069dc001f2000000069dc00002000c12283be080051dc000020000300febe000051dc00002001800080bef70389bf000044d4010100000102027e0c0069dc000120007e0081be0100008b0001018d000061d701000100c12283be080069dc000020000300febe0000febe3100a5bfc12283be080051dc000020000300febe000051dc00002001810080bef70389bf000044d4010100000102027e100069dc000120007e0081be0100008b0001018d000061d701020100c12283be080069dc000020000300febe0000febe5000a5bfc12283be080051dc000020000300febe000051dc00002001820080bef70389bf01004ad401010000800080be8002027e140069dc000120007e0080be000061d700040100c12283be080069dc000020000300febe0001008b0000febe5d00a5bf5500a0bfc12283be080051dc000020000300febef70389bf000060d700010100002280be0c0051dc00002001f70389bf180069dc000120007e00008b000061d700060100c12283be080069dc000020000300febe7e007e8d6f00a5bfc12283be080051dc000020000300febe000051dc00002001800080bef70389bf01004ad4010100000002027e1c0069dc000120007e0080be000061d700080100c12283be080069dc000020000300febe0001008b0000febe4b00a5bf040051dc00002000ff0080beff030000f70389bf00001bd5000100001c0069dc000020004100a0bfc12283be080051dc000020000300febef70389bf000060d700030100002280be100051dc00002001f70389bf200069dc000120007e00008b000061d7000a0100c12283be080069dc000020000300febe7e007e8d1d00a5bf040051dc00002000f70389bf000010d600152902200069dc000020001500a0bf040051dc00002000f70389bf000010d600292902140069dc00002000c12283be080051dc000020010300febef70389bf000060d7010501007e007e8c140051dc00002000f70389bf100069dc00002000cdffa0bfc12283be080051dc000020010300febef70389bf000060d7010b01007e007e8c200051dc00002000f70389bf0c0069dc0000200088ffa0bfc12283be080051dc000020010300febef70389bf000060d7010901007e007e8c1c0051dc00002000f70389bf180069dc00002000c12283be080051dc000020020300febef70389bf000060d7020701007e007e8c180051dc000020008002027ec12480bef70389bf240051dc00002000280051dc000020012c0051dc000020020000febef70389bf1e4880be000089bf210080be2000a1bec12481bec40169dc00022100c80169dc00002100cc0169dc00052100d00169dc00032100d40169dc00042100d80169dc00012100dc0169dc00082100e00169dc00072100e40169dc00062100c100febe000069dc002821000100febe280061d722040100280061d70006010020ff2081f0010000280061d71e000100280061d71f020100100069dc001f2100020061d706000100020061d707020100c122a2be040069dc000221002200febe0103067e0003027ec122a2be040051dc000021002200febef70389bf000061d70f040100000061d70e060100000061d70d080100000061d70c0a0100000061d70a0c0100000061d70b0e0100000061d708100100000061d709120100000061d704140100000061d7051601000303047e800180be01005dd401010000c10080be010001d5000206000c0069dc000121008002047e004780be00ff0080d4c1ffff01ff0182ffffffff000042dc02000002800080bef70389bf01003dd402010000000061d70118010002003ad402010000000061d7021a0100ff0081be00020000ff0080be00010000027e028b00010098010025d501010000080069dc00012100004780be00ff00806cc1ffff01ff0182ffffffff800000f4000000f8004780be00ff0080786f000001ff018200000000ff0083bef401000007fc89bf020304bf000061d7001c0100000061d7011e01007e00a2bec100febe040069dc000021002200febe1400a2bfc122a2be040051dc000021002200febef70389bf000060d700110100010060d700130100000004f4600000f807fc89bf000061d7001c0100000061d7011e0100c122a2be040069dc000021002200febec122a2be040051dc000021002200febef70389bf030060d7001b0100000060d7001d0100010060d7001f0100080051dc000021010c0051dc00002103ff02047e00a00100000061d700200100000061d701220100100856dc02000004f70389bf2c006ddc00042100080856dc02000004f70389bf24006ddc00042100800080bec10081be02001fd701000000020020d701040200200069dc0002210001004ad402010000000061d701240100c00082bea00081be037e048b01020198000061d701260100ff0082bec0ffffffff0081bee0ffffff037e038b01020198000061d701280100c40081be040025d5030300001c0069dc00042100820081be020018d501040200030025d503050200180069dc00032100010025d501050200140069dc00012100000061d7002a0100c122a2be040069dc000021002200febe3000a0bf1f0060d7280301001e0060d728010100c122a2be340051dc000021002200febec122a2be380051dc000021012200febec122a2be040051dc000021022200febe220060d728050100000060d728070100c12481bec40151dc00002102c80151dc00002100cc0151dc00002105d00151dc00002103d40151dc00002104d80151dc00002101dc0151dc00002108e00151dc00002107e40151dc00002106c100febe000051dc000021280100febe20ff208110feffff0000a1be070089bf1e4880bec122a2be040051dc000021002200febef70389bf010060d700250100000060d7002b0100000061d7002c0100800080be8002027e3c0069dc000121007e0080be000061d7002e0100c122a2be040069dc000021002200febe0001008b0000febe1c00a5bfc122a2be040051dc000021002200febef70389bf020060d700210100030060d700230100000060d7002d0100800084be040081be870084be00048484020080be030081be040083be050082be0003008001020282020081be8002007e004852dc00000000f70389bf3c0069dc00002100c122a2be040051dc000021002200febef70389bf000060d7002f01007e007e8c3c0051dc00002101f70389bf0105007e000061d700300100c122a2be040069dc000021002200febe800081be000106bf2b00a2bfc122a2be040051dc000021052200febef70389bf020060d7052d0100010060d705290100000060d705310100c10083be000300810001018b800080be000083be800080be050061d702320100050061d7033401000002087e0002067e0102047e0002027e0002007e050061d700360100c122a2be040069dc000521002200febe500069dc000421004c0069dc00032100480069dc00022100440069dc00012100400069dc000021000100a0bf080da0bfc122a2be040051dc000021032200febef70389bf010060d703270100000060d703310100020060d703370100c122a2be380051dc000021002200febe400051dc00002101500051dc000021024c0051dc00002104480051dc00002105440051dc00002106f70389bf6c0069dc00062100680069dc00052100640069dc00042100030061d702380100000049d401010000030061d7003a0100010049d4020300000100018b800082be030061d7023c01000103087e600069dc000421000203087e5c0069dc00042100030061d7003e0100c122a2be040069dc000321002200febe580069dc00022100540069dc000121007e0080be000061d700000100c122a2be380069dc000021002200febe0001008b0000febee102a5bfc122a2be040051dc000021042200febec122a2be380051dc000021002200febef70789bf000060d704310100f70389bf010060d700030100020060d7043d0100200051dc00002102600051dc000021015c0051dc00002103f70389bf780069dc00032100740069dc00012100000061d702040100000061d701060100010025d501050200700069dc00012100010049d401010000800080be000061d7000801007e0080be000061d7000a0100c122a2be380069dc000021002200febe0001008b0000febedb00a5bfc122a2be380051dc000021002200febe700051dc00002101ff0080be00010000f70389bf000049d4010100000202027e0302047e7c006ddc000121007e0081be0100008b0001018d000061d7010c0100c122a2be380069dc000021002200febe0000febe0100a5bf7200a0bfc122a2be380051dc000021002200febef70389bf000060d7000d0100002280be7c0055dc00002101f70389bf84006ddc000121007e00008b000061d7000e0100c122a2be380069dc000021002200febe7e007e8dbb00a5bfc122a2be040051dc000021012200febef70389bf040060d701210100050060d701230100080060d701330100090060d701350100700051dc00002100ff0080be00fffffff70389bf010025d500010000880080be010019d500020200080080beff0081be0018000000018296a00086be08068885080083be0301039602030281070083be0206868400010296800080be000083be0206868c040083be050081be060084be070082be0304048001020182010085be980081be03002cd7010300000002027e0103087e040083be0303047e050082be0403027e020300d703040200010220d502020e000103067e0203027eff0082be00200000010300d7020202000303047e800082be030220d502040e000303047e004856dc01007c01ff0082beff00000000001bd50005000004002cd7000300000002007e00030a7ef70389bf0103007e0403067e0203027e0503047e000000d700070200020020d5010502000203027e84006ddc000021005f00a0bfc122a2be040051dc000021012200febef70389bf020060d701210100030060d701230100080060d701330100090060d701350100700051dc00002100980080bef70389bf0100fed6000100020103087e800086be0602007e00030a7e0503007e0203027e0002067e0303047ea00087be02003cd7070202000303027e00001cd5000302000403027e01001cd5010502000003047e080080beff0081be001800000001849608078885080085be0501059604050481080085be0407848400010096060081be0004848c020080be030081be040083be050082be0003008001020282020081beff0184be00280000000082be010080be040083be050081be0203028000010082000083be020081be0103007e030080be0203027e000100d701000200020020d5000206000203027e7c006ddc0000210040ffa0bfc122a2be380051dc000021002200febef70389bf010060d7000b01007e017e8c000060d700090100000061d700100100c122a2be380069dc000021002200febede00a0bfc122a2be380051dc000021002200febef70389bf000060d7000f01007e007e8c240055dc000021032c0055dc00002105840055dc00002101900182bef70389bf01030e7e020081be0203107e030080be070100d707030000090020d5080104000903107e9c006ddc00072100104052dc01007c07880182be0103107e020081be0203127e030080be080100d7080300000a0020d5090104000a03127e94006ddc00082100084056dc01007c01f70389bf8c006ddc00012100800080be00004ad407010000800182be01005dd4010500000001008b010059d4010b020002005ed4010702000102018c0001018b800080be000061d7001201007e0080be000061d700140100c122a2be380069dc000021002200febe0001008b0000febe8400a5bfc122a2be040051dc000021002200febef70389bf0f0060d7000501000e0060d7000701000d0060d7000901000c0060d7000b01000a0060d7000d01000b0060d7000f0100080060d700110100090060d700130100060060d700010100070060d700030100040060d700150100050060d700170100100051dc0000211f8c0055dc00002102a00080bef70389bf00003dd7000402000003027e0203007e004780be00ff008048c6ffff01ff0182ffffffff8002067ea40069dc000321000303047e00499ebec122a2be040051dc000021052200febe940055dc00002103a40051dc00002102100051dc0000211ff70f89bf040060d705150100050060d705170100060060d705010100070060d705030100080060d705110100090060d7051301000a0060d7050d01000b0060d7050f01000c0060d7050b01000d0060d7050901000e0060d7050701000f0060d7050501009c0055dc0000210080020a7e80020c7ef70f89bf00006edc03057c00f70389bf00006adc00027c00004780be00ff0080442c000001ff01820000000000499ebe780051dc000021040c0051dc00002101700051dc000021020003067ec122a2be380051dc000021002200febe820080be030018d500060200f70f89bf040018d500080200f70b89bf010055d601071204f70789bf000034d801020000c10080be7e0080bef70389bf000061d700120100c122a2be380069dc000021002200febec122a2be380051dc000021002200febef70389bf010060d7001501007e017e8c000060d700130100007e008b000061d700080100c122a2be380069dc000021002200febe11ffa0bfc122a2be040051dc000021012200febef70389bf010060d701190100c122a2be380051dc000021002200febec10080be010001d580020500810081be01004dd4010300007e016a8bf70389bf000061d700160100c122a2be380069dc000021002200febe1900a4bfc122a2be380051dc000021002200febef70389bf000060d700110100010001d580020100800080be02004dd401010000800080be000083be021982be000083be020081be000061d701180100000061d700160100c122a2be380069dc000021002200febec122a2be380051dc000021002200febef70389bf010060d700170100000060d700190100000001d580020500810081be01004dd4000300007e016a8b0002007ea80069dc000021003000a4bfc122a2be040051dc000021012200febec122a2be380051dc000021002200febef70789bf0f0060d7010501000e0060d7010701000d0060d7010901000c0060d7010b01000a0060d7010d01000b0060d7010f0100080060d701110100090060d701130100060060d701010100070060d701030100040060d701150100050060d701170100f70389bf000060d700110100100051dc0000211f000001d580020100004780be00ff0080242b000001ff01820000000000499ebea80069dc00002100c122a2be040051dc000021032200febec122a2be380051dc000021002200febef70389bf010060d700070100030060d700050100040060d703270100000060d703310100740051dc00002101780051dc00002104a80051dc00002102f70389bf020025d502090200010025d501090000020049d40101000000004ed40101000004004ed4020900000004008c7e00008b0003008c017e0191027e028b0102018c000061d7011a0100000061d701020100000081be030061d7013c0100c122a2be040069dc000321002200febe0103067e600069dc000321000203067e5c0069dc00032100b00069dc00022100ac0069dc00012100000081be000061d7011c0100c122a2be380069dc000021002200febe7e007e9148fda6bfc122a2be380051dc000021002200febef70389bf000060d7001d01007e007e8cc122a2be380051dc000021032200febec122a2be040051dc000021022200febef70789bf010060d7031b0100f70389bf000060d7023b0100b00051dc00002101ac0051dc00002100007e0091017e018b0001008c020061d7003e0100c122a2be040069dc000221002200febef70789bf580069dc00012100f70389bf540069dc00002100c122a2be040051dc000021042200febec122a2be380051dc000021002200febef70389bf010060d7000101007e017e8c000060d7043f0100640051dc00002101580051dc00002102540051dc00002103f70389bfd00069dc00032100cc0069dc00022100000061d7001e0100800080be01004dd402010000c10080be02020c7e02020a7e0202087e0202067e0202047e000061d700200100c80069dc00062100c40069dc00052100c00069dc00042100bc0069dc00032100b80069dc00022100b40069dc000121007e0080be000061d700220100c122a2be380069dc000021002200febe0001008b0000febe5b03a5bfc122a2be040051dc000021032200febef70389bf010060d703270100000060d703310100c122a2be380051dc000021002200febe6c0051dc00002101680051dc00002102f70389bf000049d402010000010049d4010300000001018b800080be000061d7002401000103067ee00069dc000321000203067edc0069dc00032100d80069dc00022100d40069dc000121007e0080be000061d700260100c122a2be380069dc000021002200febe0001008b0000febe6f03a5bfc122a2be040051dc000021042200febec122a2be380051dc000021002200febef70789bf000060d704310100f70389bf010060d700250100200051dc00002102dc0051dc00002101e00051dc00002103f70389bfec0069dc00032100000061d701280100e80069dc00012100010025d501050200e40069dc00012100010049d401010000800080be000061d7002a01007e0080be000061d7002c0100c122a2be380069dc000021002200febe0001008b0000febedb00a5bfc122a2be380051dc000021002200febee40051dc00002101ff0080be00010000f70389bf000049d4010100000202027e0302047ef0006ddc000121007e0081be0100008b0001018d000061d7012e0100c122a2be380069dc000021002200febe0000febe0100a5bf7200a0bfc122a2be380051dc000021002200febef70389bf000060d7002f0100002280bef00055dc00002101f70389bff8006ddc000121007e00008b000061d700300100c122a2be380069dc000021002200febe7e007e8dbb00a5bfc122a2be040051dc000021012200febef70389bf040060d701210100050060d701230100080060d701330100090060d701350100e40051dc00002100ff0080be00fffffff70389bf010025d500010000880080be010019d500020200080080beff0081be0018000000018296a00086be08068885080083be0301039602030281070083be0206868400010296800080be000083be0206868c040083be050081be060084be070082be0304048001020182010085be980081be03002cd7010300000002027e0103087e040083be0303047e050082be0403027e020300d703040200010220d502020e000103067e0203027eff0082be00200000010300d7020202000303047e800082be030220d502040e000303047e004856dc01007c01ff0082beff00000000001bd50005000004002cd7000300000002007e00030a7ef70389bf0103007e0403067e0203027e0503047e000000d700070200020020d5010502000203027ef8006ddc000021005f00a0bfc122a2be040051dc000021012200febef70389bf020060d701210100030060d701230100080060d701330100090060d701350100e40051dc00002100980080bef70389bf0100fed6000100020103087e800086be0602007e00030a7e0503007e0203027e0002067e0303047ea00087be02003cd7070202000303027e00001cd5000302000403027e01001cd5010502000003047e080080beff0081be001800000001849608078885080085be0501059604050481080085be0407848400010096060081be0004848c020080be030081be040083be050082be0003008001020282020081beff0184be00280000000082be010080be040083be050081be0203028000010082000083be020081be0103007e030080be0203027e000100d701000200020020d5000206000203027ef0006ddc0000210040ffa0bfc122a2be380051dc000021002200febef70389bf010060d7002d01007e017e8c000060d7002b0100000061d700320100c122a2be380069dc000021002200febe1a01a0bfc122a2be380051dc000021002200febef70389bf000060d7003101007e007e8c240055dc000021032c0055dc00002105f80055dc00002107880182bef70389bf0703027e020081be0803047e030080be010100d701030000090020d5020104000903047e10016ddc00012100084056dc07007c01f70389bf08016ddc00012100900182be0703127e020081be0803147e030080be090100d7090300000b0020d50a0104000b03147e00016ddc00092100104052dc07007c07800080bef70389bf00004ad407010000010059d4010b020002005ed4010702000102018c0001008b7e0081be0100008b0001018d000061d701340100c122a2be380069dc000021002200febe0000febe0100a5bf6100a0bfc122a2be380051dc000021002200febef70389bf000060d700350100002280be010060d700370100000061d701380100000061d7013a01007e00008b000061d7003c0100c122a2be380069dc000021002200febe7e007e8dad00a5bfc122a2be040051dc000021002200febef70389bf0f0060d7000501000e0060d7000701000d0060d7000901000c0060d7000b01000a0060d7000d01000b0060d7000f0100080060d700110100090060d700130100060060d700010100070060d700030100040060d700150100050060d700170100100051dc0000211f004780be00ff0080d81f000001ff01820000000000499ebeec0051dc00002104080051dc00002101e40051dc00002102c122a2be380051dc000021032200febef70389bf000060d7033901000003067ec122a2be380051dc000021002200febe820081be030018d501060200040018d501080200010055d601071204000034d801020000c10081be007e008cf70389bf000061d7003a0100c122a2be380069dc000021002200febe6300a0bfc122a2be380051dc000021002200febe080155dc00002101800180bef70389bf01005dd4010100007e0080be000061d7003e0100c122a2be380069dc000021002200febe0001008b0000febe3f00a5bfc122a2be040051dc000021002200febef70389bf0f0060d7000501000e0060d7000701000d0060d7000901000c0060d7000b01000a0060d7000d01000b0060d7000f0100080060d700110100090060d700130100060060d700010100070060d700030100040060d700150100050060d700170100100051dc0000211f080155dc00002102a00080bef70389bf00003dd7000402000003027e0203007e004780be00ff008068b7ffff01ff0182ffffffff8002067e180169dc000321000303047e00499ebe100155dc00002103180151dc00002102000155dc0000210080020a7e80020c7ef70b89bf00006edc03057c00f70389bf00006adc00027c00c122a2be380051dc000021002200febef70389bf000060d7003f01007e007e8c800080be000061d700360100c122a2be380069dc000021002200febe3cffa0bfc122a2be380051dc000021002200febef70389bf010060d7003d01007e017e8c000060d7003b0100007e008b000061d7002a0100c122a2be380069dc000021002200febed5fea0bfc122a2be040051dc000021012200febef70389bf010060d701190100c122a2be340051dc000021002200febec10080be010001d580020500810081be01004dd4010300007e016a8bf70389bf000061d700000100c122a2be340069dc000021002200febe1e00a4bfc122a2be380051dc000021012200febef70389bf000060d701330100c122a2be340051dc000021002200febe010001d580020100800080be02004dd401010000800080be000083be021982be000083be020081bef70389bf000061d701020100000061d700000100c122a2be340069dc000021002200febec122a2be340051dc000021002200febef70389bf010060d700010100000060d700030100000001d580020500810081be01004dd4000300007e016a8b0002007e1c0169dc000021003000a4bfc122a2be040051dc000021012200febec122a2be380051dc000021002200febef70789bf0f0060d7010501000e0060d7010701000d0060d7010901000c0060d7010b01000a0060d7010d01000b0060d7010f0100080060d701110100090060d701130100060060d701010100070060d701030100040060d701150100050060d701170100f70389bf000060d700330100100051dc0000211f000001d580020100004780be00ff0080041d000001ff01820000000000499ebe1c0169dc00002100c122a2be040051dc000021052200febef70389bf020060d7052701000f0060d7050501000e0060d7050701000d0060d7050901000c0060d7050b01000a0060d7050d01000b0060d7050f0100080060d705110100090060d705130100060060d705010100070060d705030100040060d705150100050060d705170100ec0051dc000021041c0151dc00002102200051dc00002101100051dc0000211f080051dc00002100820080bef70389bf000046d604010004004780be00ff00805c1c000001ff018200000000280169dc0002210000499ebe280151dc00002102e80051dc00002101c122a2be380051dc000021032200febec122a2be340051dc000021002200febe000060d705310100f70789bf010060d703290100020025d502090200010026d50105000000004ed40101000002004ed4020500000002008c7e00008b0001008c000081be030061d701240100c122a2be380069dc000321002200febe0203067ee00069dc000321000103067edc0069dc00032100240169dc00022100200169dc00012100000081bef70389bf000061d701040100c122a2be340069dc000021002200febe7e007e91e5fca6bfc122a2be340051dc000021002200febef70389bf000060d7000501007e007e8c240151dc00002100200151dc00002101f70389bfd80069dc00012100d40069dc000021004200a0bfc122a2be380051dc000021082200febec122a2be040051dc000021072200febef70789bf020060d7082301007e027e8cf70389bf010060d707390100000060d708210100c122a2be340051dc000021002200febec80051dc00002102c40051dc00002103c00051dc00002104bc0051dc00002105b80051dc00002106b40051dc000021017e00008b0001008c000081be070061d701360100c122a2be040069dc000721002200febef70789bf500069dc000621004c0069dc00052100480069dc00042100440069dc00032100400069dc00022100f70389bf2c0169dc00012100000081be000061d701060100c122a2be340069dc000021002200febe7e007e9101f9a6bfd303a0bfc122a2be380051dc000021042200febef70389bf000060d7042701007e007e8cc122a2be340051dc000021002200febe640051dc00002101d80051dc00002103d40051dc00002102f70389bf4c0169dc00022100480169dc00032100800080be01004dd402010000c10080be02020c7e02020a7e0202087e0202067e0202047e000061d700080100440169dc00062100400169dc000521003c0169dc00042100380169dc00032100340169dc00022100300169dc000121007e0080be000061d7000a0100c122a2be340069dc000021002200febe0001008b0000febe3f00a5bfc122a2be040051dc000021042200febef70389bf000060d704270100c122a2be340051dc000021002200febe200051dc00002102cc0051dc000021014c0151dc00002103f70389bf010013d501070200010013d500020200500169dc0001210001004cd401050200800080be000061d7000c01007e0080be000061d7000e0100c122a2be340069dc000021002200febe0001008b0000febe4d00a5bfc122a2be340051dc000021002200febe140051dc00002102180051dc00002101f70389bf0000d8d8010000010000d8d80200000207fc89bf000049d401050200007e008b000061d7000c0100c122a2be340069dc000021002200febe3500a0bfc122a2be340051dc000021072200febef70389bf010060d7070b01007e017e8c000060d707090100c122a2be380051dc000021062200febe440151dc00002105400151dc000021043c0151dc00002103380151dc00002102340151dc00002101300151dc00002100007e0092f71b89bf060061d700200100c122a2be380069dc000621002200febef71789bfc80069dc00052100f71389bfc40069dc00042100f70f89bfc00069dc00032100f70b89bfbc0069dc00022100f70789bfb80069dc00012100f70389bfb40069dc0000210012ffa0bfc122a2be340051dc000021002200febef70389bf000060d7000f01007e007e8c010060d7000d0100000061d7011001007e0080be000061d700120100c122a2be340069dc000021002200febe0001008b0000febee000a5bfc122a2be340051dc000021002200febe180051dc00002101f70389bf0000d8d80100000107fc89bf5c0169dc00012100ff0080be00010000000049d4010100000202027e0302047e54016ddc000121007e0081be0100008b0001018d000061d701140100c122a2be340069dc000021002200febe0000febe0100a5bf7200a0bfc122a2be340051dc000021002200febef70389bf000060d700150100002280be540155dc00002101f70389bf60016ddc000121007e00008b000061d700160100c122a2be340069dc000021002200febe7e007e8db300a5bfc122a2be040051dc000021012200febef70389bf040060d701210100050060d701230100080060d701330100090060d7013501005c0151dc00002100ff0080be00fffffff70389bf010025d500010000880080be010019d500020200080080beff0081be0018000000018296a00086be08068885080083be0301039602030281070083be0206868400010296800080be000083be0206868c040083be050081be060084be070082be0304048001020182010085be980081be03002cd7010300000002027e0103087e040083be0303047e050082be0403027e020300d703040200010220d502020e000103067e0203027eff0082be00200000010300d7020202000303047e800082be030220d502040e000303047e004856dc01007c01ff0082beff00000000001bd50005000004002cd7000300000002007e00030a7ef70389bf0103007e0403067e0203027e0503047e000000d700070200020020d5010502000203027e60016ddc000021005700a0bfc122a2be040051dc000021012200febef70389bf020060d701210100030060d701230100080060d701330100090060d7013501005c0151dc00002100980080bef70389bf0100fed6000100020103087e800086be0602007e00030a7e0503007e0203027e0002067e0303047ea00087be02003cd7070202000303027e00001cd5000302000403027e01001cd5010502000003047e080080beff0081be001800000001849608078885080085be0501059604050481080085be0407848400010096060081be0004848c020080be030081be040083be050082be0003008001020282020081beff0184be00280000000082be010080be040083be050081be0203028000010082000083be020081be0103007e030080be0203027e000100d701000200020020d5000206000203027e54016ddc0000210040ffa0bfc122a2be340051dc000021002200febef70389bf000060d7001301007e007e8c0b01a0bfc122a2be340051dc000021002200febef70389bf000060d7001701007e007e8c140051dc00002101600155dc00002102f70389bf74016ddc000221000000d8d80100000107fc89bf700169dc00012100ff0080be00010000000049d4010100000202027e0302047e68016ddc000121007e0081be0100008b0001018d000061d701180100c122a2be340069dc000021002200febe0000febe0100a5bf7200a0bfc122a2be340051dc000021002200febef70389bf000060d700190100002280be680155dc00002101f70389bf7c016ddc000121007e00008b000061d7001a0100c122a2be340069dc000021002200febe7e007e8daa00a5bfc122a2be040051dc000021012200febef70389bf040060d701210100050060d701230100080060d701330100090060d701350100700151dc00002100ff0080be00fffffff70389bf010025d500010000880080be010019d500020200080080beff0081be0018000000018296a00086be08068885080083be0301039602030281070083be0206868400010296800080be000083be0206868c040083be050081be060084be070082be0304048001020182010085be980081be03002cd7010300000002027e0103087e040083be0303047e050082be0403027e020300d703040200010220d502020e000103067e0203027eff0082be00200000010300d7020202000303047e800082be030220d502040e000303047e004856dc01007c01ff0082beff00000000001bd50005000004002cd7000300000002007e00030a7ef70389bf0103007e0403067e0203027e0503047e000000d700070200020020d5010502000203027e7c016ddc000021004e00a0bfc122a2be040051dc000021012200febef70389bf020060d701210100030060d701230100080060d701330100090060d701350100700151dc00002100980080bef70389bf0100fed6000100020103087e800086be0602007e00030a7e0503007e0203027e0002067e0303047ea00087be02003cd7070202000303027e00001cd5000302000403027e01001cd5010502000003047e080080beff0081be001800000001849608078885080085be0501059604050481080085be0407848400010096060081be0004848c020080be030081be040083be050082be0003008001020282020081beff0184be00280000000082be010080be040083be050081be0203028000010082000083be020081be0103007e030080be0203027e000100d701000200020020d5000206000203027e68016ddc0000210040ffa0bfc122a2be340051dc000021042200febef70389bf000060d7041b01007e007e8c740155dc000021025c0151dc000021067c0155dc00002100f70389bf084056dc00007c04f70389bf04006adc04067c0008006edc02047c00104052dc00007c04f70389bf10006adc02047c008002047e8002067e08006edc00027c008002047e10006adc00027c00ecfea0bfc122a2be040051dc000021012200febef70389bf010060d701190100c122a2be340051dc000021002200febec10080be010001d580020500810081be01004dd4010300007e016a8bf70389bf000061d7001c0100c122a2be340069dc000021002200febe1900a4bfc122a2be340051dc000021002200febef70389bf000060d700110100010001d580020100800080be02004dd401010000800080be000083be021982be000083be020081be000061d7011e0100000061d7001c0100c122a2be340069dc000021002200febec122a2be340051dc000021002200febef70389bf010060d7001d0100000060d7001f0100000001d580020500810081be01004dd4000300007e016a8b0002007e840169dc000021003000a4bfc122a2be040051dc000021012200febec122a2be340051dc000021002200febef70789bf0f0060d7010501000e0060d7010701000d0060d7010901000c0060d7010b01000a0060d7010d01000b0060d7010f0100080060d701110100090060d701130100060060d701010100070060d701030100040060d701150100050060d701170100f70389bf000060d700110100100051dc0000211f000001d580020100004780be00ff0080540d000001ff01820000000000499ebe840169dc00002100c122a2be340051dc000021002200febe640051dc00002101840151dc00002102800080bef70389bf8c0169dc0002210001004dd402010000880169dc000121007e0080be000061d700200100c122a2be340069dc000021002200febe0001008b0000febe0d00a5bf8c0151dc000021001c0051dc00002101820080bef70389bf000046d6000104040000d8d80000000007fc89bf880169dc00002100c122a2be380051dc000021062200febec122a2be340051dc000021002200febef70389bf010060d7002101007e017e8c000060d7061f01004c0151dc00002101cc0051dc000021028c0151dc00002103500151dc00002104880151dc00002105f70389bf980169dc0005210001004ad4030902000001018bc10080be0100008d000061d700220100940169dc00022100900169dc000121007e0080be000061d700240100c122a2be340069dc000021002200febe0001008b0000febe2500a5bf140051dc00002102180051dc000021044c0151dc00002100500151dc00002106cc0051dc00002101820080bef70789bf030018d5000c0200050025d504070200030025d502070200f70389bf010026d5010d0200000026d5000d02000000d8d80500000507fc89bf000034d8040500000000d8d80300000307fc89bf000034d802030000940169dc00012100900169dc00002100c122a2be340051dc000021052200febef70389bf010060d7052501007e017e8c000060d705230100980151dc00002100480151dc00002102d00051dc00002104940151dc00002101900151dc00002103007e0092050061d700080100c122a2be340069dc000521002200febef70b89bf440169dc00042100f70389bf400169dc000321003c0169dc000221000003047e380169dc00022100340169dc00012100300169dc00002100a4fca0bfc122a2be340051dc000021002200febef70389bf000060d7000701007e007e8cc122a2be040051dc000021022200febef70389bf000060d702290100c122a2be340051dc000021012200febe2c0151dc00002100f70389bf00001bd500010000800080be010061d700260100c122a2be340069dc000121002200febe9c0169dc00002100c122a2be040051dc000021032200febec122a2be340051dc000021002200febef70789bf000060d703310100f70389bf010060d700270100000061d701280100200051dc000021029c0151dc00002101f70389bfa40169dc00012100010025d501050200a00169dc00012100010049d401010000800080be000061d7002a01007e0080be000061d7002c0100c122a2be340069dc000021002200febe0001008b0000febedb00a5bfc122a2be340051dc000021002200febea00151dc00002101ff0080be00010000f70389bf000049d4010100000202027e0302047ea8016ddc000121007e0081be0100008b0001018d000061d7012e0100c122a2be340069dc000021002200febe0000febe0100a5bf7200a0bfc122a2be340051dc000021002200febef70389bf000060d7002f0100002280bea80155dc00002101f70389bfb0016ddc000121007e00008b000061d700300100c122a2be340069dc000021002200febe7e007e8dbb00a5bfc122a2be040051dc000021012200febef70389bf040060d701210100050060d701230100080060d701330100090060d701350100a00151dc00002100ff0080be00fffffff70389bf010025d500010000880080be010019d500020200080080beff0081be0018000000018296a00086be08068885080083be0301039602030281070083be0206868400010296800080be000083be0206868c040083be050081be060084be070082be0304048001020182010085be980081be03002cd7010300000002027e0103087e040083be0303047e050082be0403027e020300d703040200010220d502020e000103067e0203027eff0082be00200000010300d7020202000303047e800082be030220d502040e000303047e004856dc01007c01ff0082beff00000000001bd50005000004002cd7000300000002007e00030a7ef70389bf0103007e0403067e0203027e0503047e000000d700070200020020d5010502000203027eb0016ddc000021005f00a0bfc122a2be040051dc000021012200febef70389bf020060d701210100030060d701230100080060d701330100090060d701350100a00151dc00002100980080bef70389bf0100fed6000100020103087e800086be0602007e00030a7e0503007e0203027e0002067e0303047ea00087be02003cd7070202000303027e00001cd5000302000403027e01001cd5010502000003047e080080beff0081be001800000001849608078885080085be0501059604050481080085be0407848400010096060081be0004848c020080be030081be040083be050082be0003008001020282020081beff0184be00280000000082be010080be040083be050081be0203028000010082000083be020081be0103007e030080be0203027e000100d701000200020020d5000206000203027ea8016ddc0000210040ffa0bfc122a2be340051dc000021002200febef70389bf010060d7002d01007e017e8c000060d7002b0100000061d700320100c122a2be340069dc000021002200febe1900a0bfc122a2be340051dc000021002200febef70389bf000060d7003101007e007e8cb00155dc00002101f70389bf084056dc01007c01800180bef70389bf00005dd401010000007e008b000061d7002a0100c122a2be340069dc000021002200febed6ffa0bfc122a2be040051dc000021012200febef70389bf010060d701190100c122a2be340051dc000021002200febec10080be010001d580020500810081be01004dd4010300007e016a8bf70389bf000061d700340100c122a2be340069dc000021002200febe1900a4bfc122a2be340051dc000021002200febef70389bf000060d700330100010001d580020100800080be02004dd401010000800080be000083be021982be000083be020081be000061d701360100000061d700340100c122a2be340069dc000021002200febec122a2be340051dc000021002200febef70389bf010060d700350100000060d700370100000001d580020500810081be01004dd4000300007e016a8b0002007eb80169dc000021003000a4bfc122a2be040051dc000021012200febec122a2be340051dc000021002200febef70789bf0f0060d7010501000e0060d7010701000d0060d7010901000c0060d7010b01000a0060d7010d01000b0060d7010f0100080060d701110100090060d701130100060060d701010100070060d701030100040060d701150100050060d701170100f70389bf000060d700330100100051dc0000211f000001d580020100004780be00ff0080a003000001ff01820000000000499ebeb80169dc00002100c122a2be040051dc000021032200febec122a2be340051dc000021002200febef70389bf010060d700290100000060d703270100a40151dc00002101b80151dc00002102f70389bf010025d50203020000004dd4000402000001008c000081be000061d7012601000103047e9c0169dc00022100bc0169dc00012100000081be000061d701380100c122a2be340069dc000021002200febe7e007e9133fea6bfc122a2be340051dc000021002200febef70389bf000060d7003901007e007e8cc122a2be040051dc000021022200febef70389bf010060d702250100c122a2be340051dc000021002200febebc0151dc00002101f70389bfc00169dc000121007e0080be000061d7003a0100c122a2be340069dc000021002200febe0001008b0000febe1c00a5bfc122a2be040051dc000021002200febef70389bf020060d700210100030060d700230100000060d700330100010060d700350100c00151dc00002101870084be00048484020080be030081be040083be050082be0003008001020282020081be8002007ef70389bf00086adc00010000c122a2be340051dc000021002200febef70389bf000060d7003b01007e007e8cf7f2a0bfc122a2be040051dc000021002200febef70389bf000060d7002d0100810081be00010081900081be000106bf000061d7002a01007e00a2bec100febe040069dc000021002200febe3ff2a2bf6ef2a0bf000089bfc12480be0c0069dc00002000100069dc000120000000febe8002027e004780be00ff00804888ffff01ff0182ffffffff000042dc01000001800080bef70389bf02003ad401010000c10080be7e026a8b0102027e040069dc00012000000061d700000100c12284be000069dc000020000400febe1700a4bfc12284be000051dc000020000400febe7e0180bea00082be000280857e0081be800082be01001fd701040000010020d700020200800080be040069dc00012000f70389bf000061d700000100c12284be000069dc000020000400febec12284be000051dc000020010400febef70389bf000060d701010100040051dc00002000010001d580020100810080be00004dd4010100007e006a8bf70389bf080069dc000020000600a4bf7e0080be800081be00001fd700020000080069dc00002000c12284be000051dc000020010400febe080051dc00002000c12480bef70389bf0c0051dc00002000100051dc000020010000febef70389bf1e4880be000089bf01001bd58100020000004ad401030100800080be00004dd400010000001880be0002007e1e4880be000089bfc12480be100069dc000020000000febe0c0069dc00022000080069dc000120000003067ec12283be000051dc000020000300febe040069dc00032000010049d4010502007e0080bef70389bf000061d700000100c12283be000069dc000020000300febe0001008b0000febe1500a5bf0c0051dc00002002080051dc00002001040051dc00002000820080bef70389bf000046d601010004016f027e010047d6010502000000d8d80000000207fc89bf0000ccda0102000107fc89bf000034d800010000c12283be000051dc000020000300febef70389bf000060d7000101007e007e8cc12480be100051dc000020000000febe070089bf1e4880be000089bf0f03207e0e031e7e0d031c7e0c031a7e0b03187e0a03167e0903147e0803127e0703107e06030e7e05030c7e04030a7e0303087e0203067e0103047e0003027e004780be00ff00803897ffff01ff0182ffffffff8402007e004880be000080bf000080bf000080bf000080bf000080bf000080bf000080bf000080bf000080bfff00a0bec0000000010061d70f000100010061d70e020100010061d70d040100010061d704060100010061d705080100010061d7020a0100010061d7030c0100010061d7000e0100010061d701100100c12292be000069dc00017c001200febe0003027ec12292be000051dc00007c001200febe140069dc00017c00010004f4000000f8010104f4080000f8070089bf000061d704120100000061d705140100000061d700160100000061d701180100010000f4100000f807fc89bf000081be000061d7011a0100ff0081beff03000001001bd501030000100069dc00017c00010049d401010000800080be8002067e0303047e08006ddc00017c00ff0080beffff7fffff02027effff7fff040069dc00017c007e0080be000061d7001c0100c12292be000069dc00007c001200febe0001008b0000febe1d00a5bfc12292be000051dc00007c021200febef70389bf020060d702170100030060d702190100080055dc00007c00820080bef70389bf01003cd700000200020081be0103007e030080be0203027e000100d701000200020020d5000206000203027e000052dc00007c00f70389bf040069dc00007c00c12292be000051dc00007c001200febef70389bf010060d7001d01007e017e8c000060d7001b0100080055dc00007c01040051dc00007c039f0081be00010081000101869b0082be0102018500010081850081be00010186000061d7011e0100810080be010008bff70789bf02030a7e0103087e28006ddc00047c00f70389bf0303087e240069dc00047c00200069dc00037c0018006ddc00017c00000061d7002001007e0092bec100febe000069dc00007c001200febe3f01a2bf0a00a0bf300055dc00007c01380051dc00007c00f70789bf28006ddc00017c00f70389bf240069dc00007c00c12292be000051dc00007c011200febef70389bf0e0060d7010101000d0060d7010301000c0060d7010501000a0060d7010701000b0060d701090100040060d7010f0100050060d701110100000060d7010b0100010060d7010d0100140051dc00007c1f240051dc00007c02280055dc00007c03f70389bf5c006ddc00037c00800083bec10082be00001fd702060000480069dc00007c00810082be010061d70222010003001dd500050000a00083be020041d403070000000001d500070a00820082be000018d502000200580069dc00007c000000ccda00020000980188be000086be010080be080087be090081be0607088000010082000089be010061d708240100010061d709260100004780be00ff00809c0d000001ff018200000000010061d700280100010061d7012a0100c12292be000069dc00017c001200febe0203027e00499ebe140051dc00007c1fc12292be000051dc00007c011200febef70389bf0e0060d7010101000d0060d7010301000c0060d7010501000a0060d7010701000b0060d701090100080060d701250100090060d701270100040060d7010f0100050060d701110100000060d701290100010060d7012b01000003027e480051dc00007c00f70389bf03001dd500050000060041d403070000000001d500071a00000018d502000200540069dc00007c000000ccda0001000000499ebe140051dc00007c1fc12292be000051dc00007c011200febef70389bf0e0060d7010101000d0060d7010301000c0060d7010501000a0060d7010701000b0060d701090100080060d701250100090060d701270100040060d7010f0100050060d701110100000060d701290100010060d7012b01000003027e480051dc00007c00840086bef70389bf03001dd5000d0000060041d403070000000001d500071a00000018d502000200500069dc00007c000000ccda0001000000499ebe140051dc00007c1fc12292be000051dc00007c011200febef70389bf0e0060d7010101000d0060d7010301000c0060d7010501000a0060d7010701000b0060d701090100080060d701250100090060d701270100040060d7010f0100050060d701110100000060d701290100010060d7012b01000003027e480051dc00007c00880086bef70389bf03001dd5000d0000060041d403070000000001d500071a00000018d5020002004c0069dc00007c000000ccda0001000000499ebe140051dc00007c1fc12292be000051dc00007c011200febef70389bf0e0060d7010101000d0060d7010301000c0060d7010501000a0060d7010701000b0060d701090100080060d701250100090060d701270100040060d7010f0100050060d701110100000060d701290100010060d7012b01000003027e480051dc00007c00900086bef70389bf03001dd5000d0000030041d403070000000001d500070e00000018d502000200440069dc00007c000000ccda0001000000499ebec12292be000051dc00007c011200febef70389bf050060d7012301000003027ec12292be000051dc00007c001200febe000012d401050200f70389bf000061d7002c0100000081be000061d7012e0100001884bec10080be800081be040507bf0202027e0302047e000061d7013001003c006ddc00017c00000061d7003201007e0092bec100febe000069dc00007c001200febe1701a2bff101a0bfc12292be000051dc00007c001200febef70389bf000060d7001b0100010060d700210100100051dc00007c01200051dc00007c02180055dc00007c03f70389bf70006ddc00037c006c0069dc00027c00850082be000061d701340100010046d601040404680069dc00017c00010049d401010000ff0080beffff7fffff02027effff7fff640069dc00017c007e0080be000061d700360100c12292be000069dc00007c001200febe0001008b0000febe2000a5bfc12292be000051dc00007c011200febef70389bf020060d701170100030060d701190100680051dc00007c00800080be8002047e0203027e820080bef70389bf01003cd700000200020081be0103007e030080be0203027e000100d701000200020020d5000206000203027e000052dc00007c00f70389bf640069dc00007c00c12292be000051dc00007c001200febef70389bf000060d7003701007e007e8c6c0051dc00007c01700055dc00007c02640051dc00007c04f70389bf840069dc00047c0001001dd4040302007c006ddc00027c00780069dc00017c007e0080be000061d700380100c12292be000069dc00007c001200febe0001008b0000febe4a00a5bfc12292be000051dc00007c001200febef70389bf0e0060d7000101000d0060d7000301000c0060d7000501000a0060d7000701000b0060d700090100040060d7000f0100050060d700110100000060d7000b0100010060d7000d0100700055dc00007c04840051dc00007c036c0051dc00007c01140051dc00007c1f680051dc00007c06800082be8002007e00030e7ef70389bf88006ddc00067c00980186be000082be010080be060083be070081be0203088000010082000089be004780be00ff00806407000001ff0182000000000303007e00499ebe880055dc00007c0100030c7e0603007e000012d4030d0200f70389bf02030c7e0503067e030001d5030d02000103047e0403027e010001d5010502000303047e7c006ddc00017c00780069dc00007c00c12292be000051dc00007c001200febef70389bf020060d7003901007e027e8c010060d7001f0100000060d7003501007c0055dc00007c01780051dc00007c03810082be00020081000106bff70789bf02030a7e0103087e30006ddc00047c00f70389bf0303087e380069dc00047c00200069dc00037c0018006ddc00017c00000061d7002001007e0092bec100febe000069dc00007c001200febee2fda2bf1fffa0bfc12292be000051dc00007c001200febef70389bf000060d7003b01007e007e8c010060d7003d0100900055dc00007c01800080be000061d701300100f70389bf3c006ddc00017c00000061d700320100c12292be000069dc00007c001200febef700a0bfc12292be000051dc00007c031200febef70389bf010060d7032d0100000060d7033f01005c0055dc00007c00c12292bea00051dc00007c021200febe007e0091017e018b0001008cf70389bf020061d700000100c12292bea00069dc00027c001200febe98006ddc00007c002f01a0bfc12292be000051dc00007c001200febef70389bf010060d7002f0100100051dc00007c01440051dc00007c024c0051dc00007c05500051dc00007c06540051dc00007c07580051dc00007c08c12292bea00051dc00007c091200febe5c0055dc00007c0aff0080beffffff7fc10082be000083be030080bef70389bf0b03067e010084be030001d500061200020080be0a03087e040001d5000806000403147e0303167ea00080be090061d700020100c12292bea00069dc00097c001200febe0b031a7e0a03187e0c003dd7001802000c03127e0000ccda0804000d0000ccda080900080102187e0c03127e07fc89bf08003cd700100200800081be0102187e0c031c7e0903187e0e031e7e0c001cd50c1f02000d03127e08001cd5081302000c03127e020051d4081502000903147e030001d503150a00040001d504110a000403127e0303147e0a03187e0903167e0b003dd7001602000b03107e0000ccda0704000c0000ccda070800070202167e0b03107e07fc89bf07003cd7000e02000102167e0b031a7e0803167e0d031c7e0b001cd50b1d02000c03107e07001cd5071102000b03107e020051d4071302000803127e030001d503130a00040001d5040f0a000403107e0303127e0903167e0803147e0a003dd7001402000a030e7e0000ccda0604000b0000ccda060700060202147e0a030e7e07fc89bf06003cd7000c02000102147e0a03187e0703147e0c031a7e0a001cd50a1b02000b030e7e06001cd5060f02000a030e7e020051d4061102000703107e030001d503110a00040001d5040d0a0004030e7e0303107e0803147e0703127e09003dd70012020009030c7e0000ccda0504000a0000ccda050600050202127e09030c7e07fc89bf05003cd7000a02000102127e0903167e0603127e0b03187e09001cd5091902000a030c7e05001cd5050d020009030c7e020051d4050f020006030e7e030001d5030f0a00040001d5040b0a0004030a7e03030c7e0603107e05030e7eac006ddc00077c0005003dd7000a02000503067e0000ccda0204000407fc89bfa80069dc00047c000000ccda0203000207fc89bfa40069dc00027c00800080be00004ad4010100000202027e0302047e000061d7013c010090006ddc00017c007e0081be0100008b0001018d000061d7013a0100c12292be000069dc00007c001200febe0000febef1fea5bf2200a0bfc12292be000051dc00007c031200febef70389bf010060d703330100000060d703310100c12292bea00051dc00007c021200febe3c0055dc00007c00030061d7003e0100c12292be000069dc00037c001200febe7e016a8bf70789bf020061d700000100c12292bea00069dc00027c001200febef70389bf98006ddc00007c00e8fea4bf3200a0bfc12292be000051dc00007c021200febeac0055dc00007c04a80051dc00007c00a40051dc00007c060002027e01030e7ea00080bef70389bf06003cd7000c0200800080be8002067e0303027e0103107e0703067e03001cd5031102000003027e0603007e00001cd5000302000303027e000051d40009020001030c7e0503067e030001d5030d02000003027e0403007e000001d5000302000303027ec10080be7e0080be020061d7003c0100c12292be000069dc00027c001200febe90006ddc00007c009cfea0bfc12292bea00051dc00007c001200febef70389bf010060d700010100980055dc00007c01f70389bfb4006ddc00017c007e0080be000061d700040100c12292bea00069dc00007c001200febe0001008b0000febe0f00a5bfc12292be000051dc00007c001200febef70389bf000060d700130100010060d700150100b40055dc00007c018002007ef70389bf00006edc00010000c12292bea00051dc00007c001200febef70389bf000060d7000501007e007e8cc12292be000051dc00007c011200febe0000b0bf000089bf210080be2000a1be010010d501030200000010d500010200000010d5000302000000a1be1e4880be00009fbf00009fbf00009fbf00009fbf00009fbf00009fbf00009fbf00009fbf00009fbf00009fbf00009fbf00009fbf00009fbf00009fbf00009fbf00009fbf00009fbf00009fbf00009fbf00009fbf00009fbf00009fbf00009fbf00009fbf00009fbf00009fbf00009fbf00009fbf00009fbf00009fbf00009fbf00009fbf00009fbf00009fbf00009fbf00009fbf00009fbf00009fbf00009fbf00009fbf00009fbf00009fbf00009fbf00009fbf00009fbf00009fbf00009fbf00009fbf00009fbf00009fbf00009fbf00009fbf00009fbf00009fbf00009fbf00009fbf00009fbf00009fbf00009fbf00009fbf00009fbf00009fbf00009fbf00009fbf00009fbf00009fbf00009fbf00009fbf00009fbf00009fbf00009fbf00009fbf00009fbf00009fbf00009fbf00009fbf00009fbf00009fbf00009fbf00009fbf00009fbf00009fbf00009fbf00009fbf00009fbf00009fbf00009fbf00009fbf00009fbf00009fbf00009fbf00009fbf00009fbf00009fbf00009fbf00009fbf00009fbf00009fbf00009fbf00009fbf0600000000000000f0080000000000000b0000000000000018000000000000000500000000000000040b0000000000000a00000000000000fc00000000000000f5feff6f00000000280a0000000000000400000000000000940a00000000000000000000000000000000000000000000414d4420636c616e672076657273696f6e2031372e302e30202868747470733a2f2f6769746875622e636f6d2f526164656f6e4f70656e436f6d707574652f6c6c766d2d70726f6a65637420726f632d362e302e3020323334383320373230386538643135666266323138646562373434383365613863353439633637636134393835652900636c616e672076657273696f6e2031392e302e30676974004c696e6b65723a204c4c442031392e302e300000636c616e672076657273696f6e2031382e302e3000000000000000000000000000000000000000000000000000000100000001000600480c00000000000004000000000000001400000001000600440c00000000000001000000000000002b00000001000a0070ba00000000000090a8010000000000370000000200070050850000000000002c0000000000000043000000020007007c8500000000000000010000000000004f0000000200070044980000000000002c000000000000003e01000001020600400c0000000000000400000000000000720100000002080000aa00000000000000000000000000005f00000022030700001d000000000000fc000000000000007500000022030700fc1d000000000000c0000000000000008d00000022030700bc1e0000000000004815000000000000a6000000220307000434000000000000b007000000000000bc00000022030700b43b000000000000a809000000000000ce000000220307005c45000000000000c403000000000000e2000000220307002049000000000000b83a000000000000f100000022030700d883000000000000780100000000000007010000220307007c8600000000000060000000000000001f01000012030700008700000000000044110000000000002d01000011030600000c00000000000040000000000000005601000011000a0000630200000000000100000000000000002e6e6f7465002e64796e73796d002e676e752e68617368002e68617368002e64796e737472002e726f64617461002e74657874002e64796e616d6963002e72656c726f5f70616464696e67002e627373002e636f6d6d656e74002e73796d746162002e7368737472746162002e73747274616200005f5f6f636c635f4142495f76657273696f6e005f5f6f636c635f7761766566726f6e7473697a653634005f5f756e6e616d65645f31005f5f756e6e616d65645f32005f5f756e6e616d65645f33005f5f6f636d6c5f666d61785f663332005f5f6f636b6c5f6465766d656d5f72657175657374005f5f6f636b6c5f686f737463616c6c5f70726576696577005f5f6f636b6c5f686f737463616c6c5f696e7465726e616c005f5f6f636b6c5f6873615f7369676e616c5f616464005f5f6f636b6c5f646d5f696e69745f7631005f5f6f636b6c5f6765745f6c6f63616c5f6964005f5f6f636b6c5f646d5f7472696d005f5f6f636b6c5f6163746976656c616e655f753332005f5f6f636b6c5f73616e6974697a65725f7265706f7274006172676d61785f463332493634006172676d61785f4633324936342e6b64006c6c766d2e616d6467636e2e6162692e76657273696f6e005f5f6869705f637569645f36613435623435373236356465323731005f44594e414d494300000000000000000000000000000000000000000000000000000000000000000000000000000000000000000000000000000000000000000000000000000000000100000007000000020000000000000038020000000000003802000000000000b806000000000000000000000000000004000000000000000000000000000000070000000b0000000200000000000000f008000000000000f00800000000000038010000000000000500000001000000080000000000000018000000000000000f000000f6ffff6f0200000000000000280a000000000000280a0000000000006c0000000000000002000000000000000800000000000000000000000000000019000000050000000200000000000000940a000000000000940a00000000000070000000000000000200000000000000040000000000000004000000000000001f000000030000000200000000000000040b000000000000040b000000000000fc0000000000000000000000000000000100000000000000000000000000000027000000010000000200000000000000000c000000000000000c0000000000004c000000000000000000000000000000400000000000000000000000000000002f000000010000000600000000000000001d000000000000000d000000000000007d0000000000000000000000000000000100000000000000000000000000003500000006000000030000000000000000aa000000000000008a00000000000070000000000000000500000000000000080000000000000010000000000000003e00000008000000030000000000000070aa000000000000708a00000000000090050000000000000000000000000000010000000000000000000000000000004d00000008000000030000000000000070ba000000000000708a00000000000091a8010000000000000000000000000008000000000000000000000000000000520000000100000030000000000000000000000000000000708a000000000000c7000000000000000000000000000000010000000000000001000000000000005b0000000200000000000000000000000000000000000000388b000000000000f8010000000000000e0000000900000008000000000000001800000000000000630000000300000000000000000000000000000000000000308d00000000000075000000000000000000000000000000010000000000000000000000000000006d0000000300000000000000000000000000000000000000a58d0000000000007b01000000000000000000000000000001000000000000000000000000000000"> : vector<37600xi8>
          }>
        ]
      })
      attributes {subgroupSize = 32, workgroup_size = [32 : index, 1 : index, 1 : index]}
    util.return %4 : tensor<1xi64>
  }
  // data = dense<"0x7f454c was generated by generate_hsaco.sh under filename.hex. It uses
  // xxd -p -c 1000000 filename.hsaco > filename.hex to generate the hexdump. and the shape is
  // vector<floor_div(character length of the hex, 2) x i8>.

  // Custom matcher for argmax operations equivalent to the custom kernel. This
  // matcher will be run one-by-one on all operations contained within the
  // target function. On success, it will return the handle to the matched
  // argmax operation.
  transform.named_sequence @match_argmax(%generic: !transform.any_op {transform.readonly}) -> (!transform.any_op) {
    // Fail fast on non-linalg generics.
    transform.match.operation_name %generic ["linalg.generic"] : !transform.any_op
    %matched = transform.match.structured failures(propagate) %generic : (!transform.any_op) -> (!transform.any_op) {
    ^bb1(%argmax: !transform.any_op):
      // Verify that the rank (i.e. number of loops) of the linalg op is 2,
      // with one parallel iterator and one reduction iterator.
      // TODO: Add optionality for the parallel dimensions.
      %c2 = transform.param.constant 2 : i64 -> !transform.param<i64>
      %rank = transform.match.structured.rank %argmax : (!transform.any_op) -> !transform.param<i64>
      transform.match.param.cmpi eq %rank, %c2 : !transform.param<i64>
      transform.match.structured.dim %argmax[0] {parallel} : !transform.any_op
      transform.match.structured.dim %argmax[-1] {reduction} : !transform.any_op

      // Verify a single input (target vector to compute the argmax of) and two
      // outputs, one for the maximum value and one for the index.
      %c1 = transform.param.constant 1 : i64 -> !transform.param<i64>
      %n_inputs = transform.match.structured.num_inputs %argmax : (!transform.any_op) -> !transform.param<i64>
      transform.match.param.cmpi eq %n_inputs, %c1 : !transform.param<i64>
      %n_outputs = transform.match.structured.num_inits %argmax : (!transform.any_op) -> !transform.param<i64>
      transform.match.param.cmpi eq %n_outputs, %c2 : !transform.param<i64>
  
      transform.match.structured.yield %argmax : !transform.any_op 
    }

    // Verify the operand shapes of the linalg op. For example, in the below,
    // dim 0 must be statically 1, and dim 1 must be statically divisible by 64.
    %in0 = transform.get_operand %matched[0] : (!transform.any_op) -> !transform.any_value
    transform.iree.match.cast_compatible_type %in0 = tensor<1x?xf32> : !transform.any_value
    transform.iree.match.dim_is_multiple_of %in0[1], 64 : !transform.any_value
    %out0 = transform.get_operand %matched[1] : (!transform.any_op) -> !transform.any_value
    transform.iree.match.cast_compatible_type %out0 = tensor<1xf32> : !transform.any_value
    %out1 = transform.get_operand %matched[2] : (!transform.any_op) -> !transform.any_value
    transform.iree.match.cast_compatible_type %out1 = tensor<1xi64> : !transform.any_value

    // Verify the region of the argmax op. This does a structural comparison of
    // region(s) of the payload operation against the single operation contained
    // within the body of this operation. This does no verification of other
    // input types/attributes. This is because typically for kernel matching,
    // the most important part to get exactly right is the inner loop. Otherwise
    // small variations to shape information and iterator counts and such are
    // better suited for more general matchers.
    transform.iree.match.regions %matched : !transform.any_op {
      ^bb0(%target: tensor<1x?xf32>, %empty_max: tensor<1xf32>, %empty_idx: tensor<1xi64>):
        %5:2 = linalg.generic {indexing_maps = [affine_map<(d0, d1) -> (d0, d1)>,
                                                affine_map<(d0, d1) -> (d0)>,
                                                affine_map<(d0, d1) -> (d0)>],
                               iterator_types = ["parallel", "reduction"]}
                               ins(%target : tensor<1x?xf32>)
                               outs(%empty_max, %empty_idx : tensor<1xf32>, tensor<1xi64>) {
        ^bb0(%in: f32, %out: f32, %out_0: i64):
          %6 = linalg.index 1 : index
          %7 = arith.index_cast %6 : index to i64
          %8 = arith.maximumf %in, %out : f32
          %9 = arith.cmpf ogt, %in, %out : f32
          %10 = arith.select %9, %7, %out_0 : i64
          linalg.yield %8, %10 : f32, i64
        } -> (tensor<1xf32>, tensor<1xi64>)
    }
    transform.yield %generic : !transform.any_op
  }

  // Rewrite callback for `transform.foreach_match`. The input signature for
  // this sequence must match exactly with the outputs of the matcher. In this
  // case we just take the argmax as an input, import the entry point for the
  // custom kernel authored above, and replace the users of the argmax with a
  // call to the function.
  transform.named_sequence @cast_and_call_argmax(%argmax: !transform.any_op {transform.readonly}) {
    %module = transform.util.get_nearest_symbol_table %argmax : (!transform.any_op) -> !transform.any_op
    %func = transform.util.import_symbol @argmax_1d_f32_entry_point into %module if undefined : (!transform.any_op) -> !transform.any_op
    %ins = transform.get_operand %argmax[0] : (!transform.any_op) -> !transform.any_value
    %outs = transform.get_result %argmax[1] : (!transform.any_op) -> !transform.any_value
    transform.util.cast_and_call %func(%ins) -> %outs before %argmax {
          // This specifies how to resolve type mismatches between the arguments
          // of the function and the inputs to the argmax. In this example, the
          // only casts this will generate are same-rank tensor casts that drop
          // static information.
          transform.type_conversion.tensor.cast_shape_dynamic_dims
      } : (!transform.any_op, !transform.any_value, !transform.any_value, !transform.any_op) -> !transform.any_op
    transform.yield
  }

  // Entry point for the transform interpreter, nested on the full module. This
  // is because the rewrites needed for importing the custom kernel needs to
  // add a new symbol to the module's symbol table.
  transform.named_sequence @__transform_main(%module: !transform.any_op) {
    // Gather the set of functions within the module.
    %funcs = transform.structured.match ops{["util.func"]} in %module : (!transform.any_op) -> !transform.any_op   
    // For each function in the module, run the matcher on all contained
    // operations.
    transform.foreach %funcs : !transform.any_op {
      ^bb1(%func: !transform.any_op):
        transform.foreach_match in %func
            // <matcher name> -> <rewriter name>
            // Multiple matcher-action pairs can be specified comma separated,
            // here we are only doing a single kind of match and replace.
            //
            // Note that the operations within the module are walked in
            // post-order, meaning actions must be very careful in their
            // replacements not to modify successors of operations. Nested
            // regions and DAG roots will be visited last so it is safest to
            // do matching + replacement on the root of the DAG rather than
            // trying to look ahead. The other option is to avoid dce/cse until
            // after the walk is complete.
            @match_argmax -> @cast_and_call_argmax
          : (!transform.any_op) -> (!transform.any_op)
    }
    // Cleanup now dead instances of argmax.
    transform.apply_dce to %module : !transform.any_op
    transform.yield
  }
}